<?xml version="1.0"?>
<opencv_storage>
<stage20>
  <maxWeakCount>6</maxWeakCount>
  <stageThreshold>-2.5145623087882996e-01</stageThreshold>
  <weakClassifiers>
    <_>
      <internalNodes>
        0 -1 84136 -2.2875764989294112e-04</internalNodes>
      <leafValues>
        -2.9123711585998535e-01 6.7214912176132202e-01</leafValues></_>
    <_>
      <internalNodes>
        0 -1 1968471 9.4916991656646132e-05</internalNodes>
      <leafValues>
        4.8515886068344116e-01 -6.4166980981826782e-01</leafValues></_>
    <_>
      <internalNodes>
        0 -1 1013623 -5.7822335511445999e-03</internalNodes>
      <leafValues>
        7.8178620338439941e-01 -3.2509443163871765e-01</leafValues></_>
    <_>
      <internalNodes>
        0 -1 987242 4.8147259803954512e-05</internalNodes>
      <leafValues>
        4.2745929956436157e-01 -7.0197534561157227e-01</leafValues></_>
    <_>
      <internalNodes>
        0 -1 171482 -1.9920233171433210e-04</internalNodes>
      <leafValues>
        -8.8069289922714233e-01 2.8407320380210876e-01</leafValues></_>
    <_>
      <internalNodes>
        0 -1 1717653 -6.1004735471215099e-05</internalNodes>
      <leafValues>
        4.6106106042861938e-01 -6.0598790645599365e-01</leafValues></_></weakClassifiers></stage20>
</opencv_storage>
