<?xml version="1.0"?>
<opencv_storage>
<stage16>
  <maxWeakCount>7</maxWeakCount>
  <stageThreshold>-5.5014163255691528e-01</stageThreshold>
  <weakClassifiers>
    <_>
      <internalNodes>
        0 -1 1949074 8.1583781866356730e-04</internalNodes>
      <leafValues>
        5.2580928802490234e-01 -6.4331209659576416e-01</leafValues></_>
    <_>
      <internalNodes>
        0 -1 440670 1.0446668602526188e-04</internalNodes>
      <leafValues>
        2.6577150821685791e-01 -6.2775141000747681e-01</leafValues></_>
    <_>
      <internalNodes>
        0 -1 160368 5.4889959283173084e-03</internalNodes>
      <leafValues>
        -2.4750867486000061e-01 6.0672426223754883e-01</leafValues></_>
    <_>
      <internalNodes>
        0 -1 92910 1.7328419198747724e-04</internalNodes>
      <leafValues>
        2.1552547812461853e-01 -7.2956895828247070e-01</leafValues></_>
    <_>
      <internalNodes>
        0 -1 1318537 6.1830580234527588e-03</internalNodes>
      <leafValues>
        1.2693876028060913e-01 -9.6446841955184937e-01</leafValues></_>
    <_>
      <internalNodes>
        0 -1 1207719 -1.3168498873710632e-02</internalNodes>
      <leafValues>
        -9.7475916147232056e-01 9.5732599496841431e-02</leafValues></_>
    <_>
      <internalNodes>
        0 -1 1807793 1.0198436939390376e-04</internalNodes>
      <leafValues>
        1.9761960208415985e-01 -5.8731615543365479e-01</leafValues></_></weakClassifiers></stage16>
</opencv_storage>
