<?xml version="1.0"?>
<opencv_storage>
<stage18>
  <maxWeakCount>9</maxWeakCount>
  <stageThreshold>-4.5447587966918945e-01</stageThreshold>
  <weakClassifiers>
    <_>
      <internalNodes>
        0 -1 1035023 3.1707016751170158e-03</internalNodes>
      <leafValues>
        4.9768227338790894e-01 -7.9735684394836426e-01</leafValues></_>
    <_>
      <internalNodes>
        0 -1 1330423 9.8156854510307312e-03</internalNodes>
      <leafValues>
        -2.2334259748458862e-01 6.5280276536941528e-01</leafValues></_>
    <_>
      <internalNodes>
        0 -1 189686 -1.0380400344729424e-02</internalNodes>
      <leafValues>
        4.5794939994812012e-01 -3.2960540056228638e-01</leafValues></_>
    <_>
      <internalNodes>
        0 -1 680263 1.1284461652394384e-04</internalNodes>
      <leafValues>
        2.1546410024166107e-01 -6.3828527927398682e-01</leafValues></_>
    <_>
      <internalNodes>
        0 -1 1800141 -5.6876300368458033e-04</internalNodes>
      <leafValues>
        -8.5074794292449951e-01 1.5948270261287689e-01</leafValues></_>
    <_>
      <internalNodes>
        0 -1 20339 1.2390655279159546e-01</internalNodes>
      <leafValues>
        1.1799839884042740e-01 -8.1314390897750854e-01</leafValues></_>
    <_>
      <internalNodes>
        0 -1 91771 6.9618123234249651e-05</internalNodes>
      <leafValues>
        2.0716552436351776e-01 -6.4727997779846191e-01</leafValues></_>
    <_>
      <internalNodes>
        0 -1 1576700 -1.4930572433513589e-05</internalNodes>
      <leafValues>
        2.1877977252006531e-01 -6.4387154579162598e-01</leafValues></_>
    <_>
      <internalNodes>
        0 -1 1961593 -3.0100747244432569e-04</internalNodes>
      <leafValues>
        4.6424084901809692e-01 -3.1186181306838989e-01</leafValues></_></weakClassifiers></stage18>
</opencv_storage>
